#ifdef __has_attribute
#define HAVE_ATTRIBUTE(x) __has_attribute(x)
#else
#define HAVE_ATTRIBUTE(x) 0
#endif
#if HAVE_ATTRIBUTE(aligned) || (defined(__GNUC__) && !defined(__clang__))
#define DATA_ALIGN_ATTRIBUTE __attribute__((aligned(4)))
#else
#define DATA_ALIGN_ATTRIBUTE
#endif

const unsigned char sensor_model[] DATA_ALIGN_ATTRIBUTE = {
  0x1c, 0x00, 0x00, 0x00, 0x54, 0x46, 0x4c, 0x33, 0x14, 0x00, 0x20, 0x00,
  0x04, 0x00, 0x08, 0x00, 0x0c, 0x00, 0x10, 0x00, 0x14, 0x00, 0x00, 0x00,
  0x18, 0x00, 0x1c, 0x00, 0x14, 0x00, 0x00, 0x00, 0x03, 0x00, 0x00, 0x00,
  0x18, 0x00, 0x00, 0x00, 0x24, 0x00, 0x00, 0x00, 0x30, 0x01, 0x00, 0x00,
  0x24, 0x00, 0x00, 0x00, 0xd8, 0x00, 0x00, 0x00, 0x50, 0x00, 0x00, 0x00,
  0x03, 0x00, 0x00, 0x00, 0x0c, 0x04, 0x00, 0x00, 0x40, 0x03, 0x00, 0x00,
  0xd4, 0x01, 0x00, 0x00, 0x01, 0x00, 0x00, 0x00, 0x30, 0x01, 0x00, 0x00,
  0x0c, 0x00, 0x00, 0x00, 0x68, 0x09, 0x00, 0x00, 0x64, 0x09, 0x00, 0x00,
  0x9c, 0x08, 0x00, 0x00, 0x50, 0x07, 0x00, 0x00, 0xe4, 0x06, 0x00, 0x00,
  0x94, 0x05, 0x00, 0x00, 0x40, 0x04, 0x00, 0x00, 0x4c, 0x09, 0x00, 0x00,
  0x48, 0x09, 0x00, 0x00, 0x44, 0x09, 0x00, 0x00, 0x40, 0x09, 0x00, 0x00,
  0xbc, 0x00, 0x00, 0x00, 0x01, 0x00, 0x00, 0x00, 0x10, 0x00, 0x00, 0x00,
  0x00, 0x00, 0x0a, 0x00, 0x10, 0x00, 0x0c, 0x00, 0x08, 0x00, 0x04, 0x00,
  0x0a, 0x00, 0x00, 0x00, 0x0c, 0x00, 0x00, 0x00, 0x1c, 0x00, 0x00, 0x00,
  0x20, 0x00, 0x00, 0x00, 0x0f, 0x00, 0x00, 0x00, 0x73, 0x65, 0x72, 0x76,
  0x69, 0x6e, 0x67, 0x5f, 0x64, 0x65, 0x66, 0x61, 0x75, 0x6c, 0x74, 0x00,
  0x01, 0x00, 0x00, 0x00, 0x14, 0x00, 0x00, 0x00, 0x01, 0x00, 0x00, 0x00,
  0x24, 0x00, 0x00, 0x00, 0x08, 0x00, 0x0c, 0x00, 0x08, 0x00, 0x04, 0x00,
  0x08, 0x00, 0x00, 0x00, 0x09, 0x00, 0x00, 0x00, 0x04, 0x00, 0x00, 0x00,
  0x07, 0x00, 0x00, 0x00, 0x64, 0x65, 0x6e, 0x73, 0x65, 0x5f, 0x31, 0x00,
  0xfa, 0xf7, 0xff, 0xff, 0x04, 0x00, 0x00, 0x00, 0x0d, 0x00, 0x00, 0x00,
  0x66, 0x6c, 0x61, 0x74, 0x74, 0x65, 0x6e, 0x5f, 0x69, 0x6e, 0x70, 0x75,
  0x74, 0x00, 0x00, 0x00, 0x01, 0x00, 0x00, 0x00, 0x0c, 0x00, 0x00, 0x00,
  0x08, 0x00, 0x0c, 0x00, 0x04, 0x00, 0x08, 0x00, 0x08, 0x00, 0x00, 0x00,
  0x08, 0x00, 0x00, 0x00, 0x0b, 0x00, 0x00, 0x00, 0x13, 0x00, 0x00, 0x00,
  0x6d, 0x69, 0x6e, 0x5f, 0x72, 0x75, 0x6e, 0x74, 0x69, 0x6d, 0x65, 0x5f,
  0x76, 0x65, 0x72, 0x73, 0x69, 0x6f, 0x6e, 0x00, 0x4a, 0xf8, 0xff, 0xff,
  0x04, 0x00, 0x00, 0x00, 0x10, 0x00, 0x00, 0x00, 0x31, 0x2e, 0x31, 0x34,
  0x2e, 0x30, 0x00, 0x00, 0x00, 0x00, 0x00, 0x00, 0x00, 0x00, 0x00, 0x00,
  0x0f, 0x00, 0x00, 0x00, 0x4d, 0x4c, 0x49, 0x52, 0x20, 0x43, 0x6f, 0x6e,
  0x76, 0x65, 0x72, 0x74, 0x65, 0x64, 0x2e, 0x00, 0x00, 0x00, 0x0e, 0x00,
  0x18, 0x00, 0x04, 0x00, 0x08, 0x00, 0x0c, 0x00, 0x10, 0x00, 0x14, 0x00,
  0x0e, 0x00, 0x00, 0x00, 0x14, 0x00, 0x00, 0x00, 0x3c, 0x00, 0x00, 0x00,
  0x40, 0x00, 0x00, 0x00, 0x44, 0x00, 0x00, 0x00, 0x54, 0x00, 0x00, 0x00,
  0x0a, 0x00, 0x00, 0x00, 0xc8, 0x07, 0x00, 0x00, 0x7c, 0x07, 0x00, 0x00,
  0x1c, 0x07, 0x00, 0x00, 0xc8, 0x05, 0x00, 0x00, 0x60, 0x05, 0x00, 0x00,
  0x0c, 0x04, 0x00, 0x00, 0xa8, 0x02, 0x00, 0x00, 0xdc, 0x01, 0x00, 0x00,
  0x08, 0x01, 0x00, 0x00, 0x6c, 0x00, 0x00, 0x00, 0x01, 0x00, 0x00, 0x00,
  0x00, 0x00, 0x00, 0x00, 0x01, 0x00, 0x00, 0x00, 0x09, 0x00, 0x00, 0x00,
  0x04, 0x00, 0x00, 0x00, 0x48, 0x02, 0x00, 0x00, 0x68, 0x01, 0x00, 0x00,
  0xb0, 0x00, 0x00, 0x00, 0x18, 0x00, 0x00, 0x00, 0x04, 0x00, 0x00, 0x00,
  0x6d, 0x61, 0x69, 0x6e, 0x00, 0x00, 0x0a, 0x00, 0x10, 0x00, 0x04, 0x00,
  0x08, 0x00, 0x0c, 0x00, 0x0a, 0x00, 0x00, 0x00, 0x02, 0x00, 0x00, 0x00,
  0x10, 0x00, 0x00, 0x00, 0x04, 0x00, 0x00, 0x00, 0x01, 0x00, 0x00, 0x00,
  0x09, 0x00, 0x00, 0x00, 0x01, 0x00, 0x00, 0x00, 0x08, 0x00, 0x00, 0x00,
  0xdc, 0xfd, 0xff, 0xff, 0x0e, 0x00, 0x00, 0x00, 0x00, 0x00, 0x00, 0x0e,
  0x01, 0x00, 0x00, 0x00, 0xdc, 0xf8, 0xff, 0xff, 0x14, 0x00, 0x00, 0x00,
  0x0a, 0x00, 0x00, 0x00, 0x18, 0x00, 0x00, 0x00, 0x40, 0x00, 0x00, 0x00,
  0x30, 0x00, 0x00, 0x00, 0x02, 0x00, 0x00, 0x00, 0x01, 0x00, 0x00, 0x00,
  0x01, 0x00, 0x00, 0x00, 0x19, 0x00, 0x00, 0x00, 0x53, 0x74, 0x61, 0x74,
  0x65, 0x66, 0x75, 0x6c, 0x50, 0x61, 0x72, 0x74, 0x69, 0x74, 0x69, 0x6f,
  0x6e, 0x65, 0x64, 0x43, 0x61, 0x6c, 0x6c, 0x3a, 0x30, 0x00, 0x00, 0x00,
  0x02, 0x00, 0x00, 0x00, 0xff, 0xff, 0xff, 0xff, 0x01, 0x00, 0x00, 0x00,
  0x90, 0xf9, 0xff, 0xff, 0x00, 0x00, 0x0e, 0x00, 0x18, 0x00, 0x08, 0x00,
  0x0c, 0x00, 0x10, 0x00, 0x07, 0x00, 0x14, 0x00, 0x0e, 0x00, 0x00, 0x00,
  0x00, 0x00, 0x00, 0x08, 0x01, 0x00, 0x00, 0x00, 0x18, 0x00, 0x00, 0x00,
  0x0c, 0x00, 0x00, 0x00, 0x04, 0x00, 0x00, 0x00, 0xec, 0xf8, 0xff, 0xff,
  0x01, 0x00, 0x00, 0x00, 0x08, 0x00, 0x00, 0x00, 0x03, 0x00, 0x00, 0x00,
  0x07, 0x00, 0x00, 0x00, 0x05, 0x00, 0x00, 0x00, 0x01, 0x00, 0x00, 0x00,
  0x74, 0xf9, 0xff, 0xff, 0x14, 0x00, 0x00, 0x00, 0x09, 0x00, 0x00, 0x00,
  0x18, 0x00, 0x00, 0x00, 0x5c, 0x00, 0x00, 0x00, 0x4c, 0x00, 0x00, 0x00,
  0x02, 0x00, 0x00, 0x00, 0x01, 0x00, 0x00, 0x00, 0x01, 0x00, 0x00, 0x00,
  0x34, 0x00, 0x00, 0x00, 0x73, 0x65, 0x71, 0x75, 0x65, 0x6e, 0x74, 0x69,
  0x61, 0x6c, 0x2f, 0x64, 0x65, 0x6e, 0x73, 0x65, 0x5f, 0x31, 0x2f, 0x4d,
  0x61, 0x74, 0x4d, 0x75, 0x6c, 0x3b, 0x73, 0x65, 0x71, 0x75, 0x65, 0x6e,
  0x74, 0x69, 0x61, 0x6c, 0x2f, 0x64, 0x65, 0x6e, 0x73, 0x65, 0x5f, 0x31,
  0x2f, 0x42, 0x69, 0x61, 0x73, 0x41, 0x64, 0x64, 0x00, 0x00, 0x00, 0x00,
  0x02, 0x00, 0x00, 0x00, 0xff, 0xff, 0xff, 0xff, 0x01, 0x00, 0x00, 0x00,
  0x44, 0xfa, 0xff, 0xff, 0x00, 0x00, 0x0e, 0x00, 0x1a, 0x00, 0x08, 0x00,
  0x0c, 0x00, 0x10, 0x00, 0x07, 0x00, 0x14, 0x00, 0x0e, 0x00, 0x00, 0x00,
  0x00, 0x00, 0x00, 0x08, 0x01, 0x00, 0x00, 0x00, 0x24, 0x00, 0x00, 0x00,
  0x18, 0x00, 0x00, 0x00, 0x0c, 0x00, 0x00, 0x00, 0x00, 0x00, 0x06, 0x00,
  0x08, 0x00, 0x07, 0x00, 0x06, 0x00, 0x00, 0x00, 0x00, 0x00, 0x00, 0x01,
  0x01, 0x00, 0x00, 0x00, 0x07, 0x00, 0x00, 0x00, 0x03, 0x00, 0x00, 0x00,
  0x06, 0x00, 0x00, 0x00, 0x04, 0x00, 0x00, 0x00, 0x02, 0x00, 0x00, 0x00,
  0x44, 0xff, 0xff, 0xff, 0x09, 0x00, 0x00, 0x00, 0x00, 0x00, 0x00, 0x09,
  0x01, 0x00, 0x00, 0x00, 0x44, 0xfa, 0xff, 0xff, 0x14, 0x00, 0x00, 0x00,
  0x08, 0x00, 0x00, 0x00, 0x18, 0x00, 0x00, 0x00, 0x6c, 0x00, 0x00, 0x00,
  0x5c, 0x00, 0x00, 0x00, 0x02, 0x00, 0x00, 0x00, 0x01, 0x00, 0x00, 0x00,
  0x40, 0x00, 0x00, 0x00, 0x46, 0x00, 0x00, 0x00, 0x73, 0x65, 0x71, 0x75,
  0x65, 0x6e, 0x74, 0x69, 0x61, 0x6c, 0x2f, 0x64, 0x65, 0x6e, 0x73, 0x65,
  0x2f, 0x4d, 0x61, 0x74, 0x4d, 0x75, 0x6c, 0x3b, 0x73, 0x65, 0x71, 0x75,
  0x65, 0x6e, 0x74, 0x69, 0x61, 0x6c, 0x2f, 0x64, 0x65, 0x6e, 0x73, 0x65,
  0x2f, 0x52, 0x65, 0x6c, 0x75, 0x3b, 0x73, 0x65, 0x71, 0x75, 0x65, 0x6e,
  0x74, 0x69, 0x61, 0x6c, 0x2f, 0x64, 0x65, 0x6e, 0x73, 0x65, 0x2f, 0x42,
  0x69, 0x61, 0x73, 0x41, 0x64, 0x64, 0x00, 0x00, 0x02, 0x00, 0x00, 0x00,
  0xff, 0xff, 0xff, 0xff, 0x40, 0x00, 0x00, 0x00, 0x24, 0xfb, 0xff, 0xff,
  0x00, 0x00, 0x0a, 0x00, 0x0c, 0x00, 0x00, 0x00, 0x04, 0x00, 0x08, 0x00,
  0x0a, 0x00, 0x00, 0x00, 0x10, 0x00, 0x00, 0x00, 0x04, 0x00, 0x00, 0x00,
  0x01, 0x00, 0x00, 0x00, 0x06, 0x00, 0x00, 0x00, 0x02, 0x00, 0x00, 0x00,
  0x00, 0x00, 0x00, 0x00, 0x03, 0x00, 0x00, 0x00, 0x0c, 0x00, 0x10, 0x00,
  0x0b, 0x00, 0x00, 0x00, 0x0c, 0x00, 0x04, 0x00, 0x0c, 0x00, 0x00, 0x00,
  0x16, 0x00, 0x00, 0x00, 0x00, 0x00, 0x00, 0x16, 0x01, 0x00, 0x00, 0x00,
  0x0c, 0xfb, 0xff, 0xff, 0x14, 0x00, 0x00, 0x00, 0x07, 0x00, 0x00, 0x00,
  0x18, 0x00, 0x00, 0x00, 0x40, 0x00, 0x00, 0x00, 0x30, 0x00, 0x00, 0x00,
  0x02, 0x00, 0x00, 0x00, 0x01, 0x00, 0x00, 0x00, 0x01, 0x00, 0x00, 0x00,
  0x1a, 0x00, 0x00, 0x00, 0x73, 0x65, 0x71, 0x75, 0x65, 0x6e, 0x74, 0x69,
  0x61, 0x6c, 0x2f, 0x66, 0x6c, 0x61, 0x74, 0x74, 0x65, 0x6e, 0x2f, 0x52,
  0x65, 0x73, 0x68, 0x61, 0x70, 0x65, 0x00, 0x00, 0x02, 0x00, 0x00, 0x00,
  0xff, 0xff, 0xff, 0xff, 0x01, 0x00, 0x00, 0x00, 0xf0, 0xfa, 0xff, 0xff,
  0xba, 0xfb, 0xff, 0xff, 0x04, 0x00, 0x00, 0x00, 0x00, 0x01, 0x00, 0x00,
  0xc8, 0xf0, 0x12, 0xbd, 0x8c, 0xaf, 0xa2, 0x3d, 0x1c, 0xb2, 0x54, 0x3e,
  0xce, 0x9c, 0x35, 0xbe, 0x08, 0x4b, 0xb6, 0xbd, 0x79, 0x4d, 0x49, 0x3f,
  0x8e, 0x93, 0x6d, 0xbf, 0xf3, 0x5d, 0x24, 0xbe, 0x2a, 0x7d, 0x9a, 0x3e,
  0xa3, 0x3f, 0x9e, 0xbe, 0x8a, 0x0b, 0x47, 0xbe, 0xaa, 0x91, 0x90, 0xbe,
  0x95, 0x32, 0x57, 0xbe, 0x0e, 0x1b, 0xe4, 0x3d, 0xc8, 0xf1, 0x99, 0x3e,
  0xca, 0xf8, 0x8c, 0xbe, 0xec, 0xff, 0x31, 0x3e, 0x38, 0xa2, 0x6f, 0x3e,
  0xfd, 0x4b, 0x99, 0x3e, 0xd8, 0xa1, 0x0b, 0x3f, 0x7c, 0x50, 0xa0, 0x3e,
  0x0c, 0x89, 0x4e, 0x3e, 0xde, 0x7e, 0x0f, 0xbe, 0x50, 0x8c, 0xf9, 0xbc,
  0x92, 0xc6, 0xd8, 0x3e, 0x93, 0x14, 0xa4, 0xbe, 0x50, 0x1a, 0xa9, 0x3e,
  0x2f, 0x6c, 0x00, 0xbe, 0x9a, 0x2e, 0xbd, 0xbd, 0xb4, 0x35, 0x4c, 0xbe,
  0x09, 0x78, 0x9c, 0x3e, 0x85, 0xf0, 0xed, 0xbd, 0xf4, 0xf4, 0x55, 0x3e,
  0x34, 0x8a, 0xb6, 0x3d, 0x9a, 0xa2, 0x8b, 0xbd, 0x9f, 0xc5, 0x53, 0xbe,
  0xb5, 0x72, 0x1d, 0x3e, 0xcc, 0x41, 0x78, 0xbe, 0x5e, 0x03, 0x2d, 0x3e,
  0x86, 0x36, 0x34, 0xbe, 0x8a, 0x6e, 0x93, 0xbe, 0xcd, 0xc4, 0x82, 0xbe,
  0x00, 0x98, 0xdf, 0xbd, 0x51, 0x9c, 0xa5, 0x3e, 0xf1, 0x1d, 0x2a, 0xbe,
  0x14, 0xb0, 0xef, 0xbe, 0x26, 0x28, 0x0f, 0x3f, 0x27, 0x9d, 0xe3, 0xbe,
  0x94, 0xc8, 0x98, 0x3d, 0xd0, 0xbf, 0xc1, 0xbc, 0xf0, 0x65, 0x68, 0x3d,
  0xf3, 0xa9, 0xa8, 0x3e, 0xd7, 0x82, 0x84, 0xbe, 0x0a, 0x41, 0x2c, 0x3e,
  0x33, 0x6c, 0xec, 0xbe, 0x18, 0x73, 0xce, 0x3d, 0xa9, 0x83, 0x32, 0xbe,
  0x7f, 0x41, 0x99, 0xbe, 0x50, 0xbb, 0x14, 0x3e, 0x59, 0x2b, 0x96, 0x3e,
  0xdf, 0x94, 0xeb, 0xbd, 0x8b, 0x70, 0x4a, 0x3e, 0xe0, 0x6f, 0x59, 0x3d,
  0x0d, 0x84, 0x7c, 0xbe, 0xae, 0xfc, 0xff, 0xff, 0x10, 0x00, 0x00, 0x00,
  0x06, 0x00, 0x00, 0x00, 0x14, 0x00, 0x00, 0x00, 0x30, 0x00, 0x00, 0x00,
  0x02, 0x00, 0x00, 0x00, 0x01, 0x00, 0x00, 0x00, 0x40, 0x00, 0x00, 0x00,
  0x19, 0x00, 0x00, 0x00, 0x73, 0x65, 0x71, 0x75, 0x65, 0x6e, 0x74, 0x69,
  0x61, 0x6c, 0x2f, 0x64, 0x65, 0x6e, 0x73, 0x65, 0x5f, 0x31, 0x2f, 0x4d,
  0x61, 0x74, 0x4d, 0x75, 0x6c, 0x00, 0x00, 0x00, 0x40, 0xfc, 0xff, 0xff,
  0x0a, 0xfd, 0xff, 0xff, 0x04, 0x00, 0x00, 0x00, 0x00, 0x01, 0x00, 0x00,
  0xac, 0x45, 0x64, 0xbe, 0x90, 0xb3, 0x3d, 0xbd, 0x2d, 0x9d, 0x55, 0x3e,
  0xa8, 0xee, 0xbd, 0x3d, 0x80, 0x2e, 0x7f, 0xbb, 0x85, 0x73, 0x40, 0x3d,
  0x64, 0x2d, 0xf4, 0xbb, 0xbc, 0x4b, 0xc3, 0x3d, 0x6f, 0x80, 0x99, 0x3e,
  0xca, 0x37, 0x67, 0x3d, 0x3e, 0xda, 0x28, 0x3d, 0x2b, 0xc3, 0xb1, 0x3d,
  0xfe, 0x88, 0xa0, 0x3d, 0x7d, 0xfc, 0x39, 0x3e, 0xb8, 0xf1, 0x0f, 0xbd,
  0xe1, 0xb1, 0x9a, 0xbe, 0x83, 0x85, 0x5a, 0x3e, 0xd0, 0xd9, 0x57, 0xbd,
  0xae, 0x94, 0x06, 0x3e, 0x70, 0xc9, 0x8d, 0x3d, 0x0b, 0x0e, 0x57, 0x3e,
  0xfa, 0x79, 0x15, 0xbe, 0x08, 0xfd, 0x5d, 0xbe, 0x45, 0x64, 0x4a, 0xbe,
  0x7d, 0x61, 0x60, 0x3d, 0xc9, 0x22, 0x3c, 0x3e, 0x67, 0x0e, 0x05, 0x3e,
  0x11, 0x92, 0x80, 0x3e, 0x68, 0xff, 0x2c, 0xbd, 0xee, 0xfb, 0x84, 0x3e,
  0x24, 0x4c, 0x0b, 0x3e, 0x1d, 0x57, 0x34, 0x3e, 0x7c, 0xa2, 0x50, 0xbe,
  0xa2, 0x67, 0x46, 0x3e, 0x1e, 0x5c, 0x4e, 0x3e, 0x6c, 0xe6, 0x84, 0xbd,
  0x26, 0x99, 0x91, 0x3e, 0xe7, 0x3a, 0x30, 0x3e, 0x4b, 0x69, 0x0f, 0xbe,
  0x9e, 0x33, 0x83, 0xbd, 0x2a, 0x66, 0xf7, 0xbd, 0x1e, 0x47, 0x99, 0x3d,
  0x38, 0x68, 0x62, 0x3e, 0xb1, 0x0b, 0xf7, 0x3d, 0x82, 0xe7, 0x4c, 0x3e,
  0x60, 0x9a, 0x57, 0x3d, 0x9c, 0xb6, 0x91, 0x3d, 0xc2, 0x0a, 0x9d, 0x3c,
  0x0a, 0xf1, 0x89, 0xbe, 0x80, 0x5e, 0x4e, 0xbd, 0xfc, 0xe6, 0xb8, 0xbd,
  0x28, 0xf2, 0x1b, 0x3e, 0x9e, 0x7a, 0x28, 0x3d, 0x3a, 0x27, 0x95, 0xbd,
  0xa7, 0x6a, 0xc2, 0x3c, 0xcf, 0x45, 0x19, 0xbe, 0xe4, 0x50, 0x72, 0xbd,
  0x70, 0xfb, 0x3b, 0xbe, 0x0c, 0x6c, 0xd5, 0xbd, 0x4c, 0xcf, 0x89, 0x3e,
  0x65, 0xaf, 0x3d, 0x3e, 0x49, 0x25, 0x04, 0x3e, 0x80, 0x8b, 0x3f, 0xbb,
  0x6a, 0xdf, 0x62, 0xbe, 0xfe, 0xfd, 0xff, 0xff, 0x10, 0x00, 0x00, 0x00,
  0x05, 0x00, 0x00, 0x00, 0x14, 0x00, 0x00, 0x00, 0x2c, 0x00, 0x00, 0x00,
  0x02, 0x00, 0x00, 0x00, 0x40, 0x00, 0x00, 0x00, 0x01, 0x00, 0x00, 0x00,
  0x17, 0x00, 0x00, 0x00, 0x73, 0x65, 0x71, 0x75, 0x65, 0x6e, 0x74, 0x69,
  0x61, 0x6c, 0x2f, 0x64, 0x65, 0x6e, 0x73, 0x65, 0x2f, 0x4d, 0x61, 0x74,
  0x4d, 0x75, 0x6c, 0x00, 0x8c, 0xfd, 0xff, 0xff, 0x56, 0xfe, 0xff, 0xff,
  0x04, 0x00, 0x00, 0x00, 0x08, 0x00, 0x00, 0x00, 0xff, 0xff, 0xff, 0xff,
  0x01, 0x00, 0x00, 0x00, 0x00, 0x00, 0x0e, 0x00, 0x18, 0x00, 0x08, 0x00,
  0x07, 0x00, 0x0c, 0x00, 0x10, 0x00, 0x14, 0x00, 0x0e, 0x00, 0x00, 0x00,
  0x00, 0x00, 0x00, 0x02, 0x10, 0x00, 0x00, 0x00, 0x04, 0x00, 0x00, 0x00,
  0x10, 0x00, 0x00, 0x00, 0x2c, 0x00, 0x00, 0x00, 0x01, 0x00, 0x00, 0x00,
  0x02, 0x00, 0x00, 0x00, 0x18, 0x00, 0x00, 0x00, 0x73, 0x65, 0x71, 0x75,
  0x65, 0x6e, 0x74, 0x69, 0x61, 0x6c, 0x2f, 0x66, 0x6c, 0x61, 0x74, 0x74,
  0x65, 0x6e, 0x2f, 0x43, 0x6f, 0x6e, 0x73, 0x74, 0x00, 0x00, 0x00, 0x00,
  0xf4, 0xfd, 0xff, 0xff, 0xbe, 0xfe, 0xff, 0xff, 0x04, 0x00, 0x00, 0x00,
  0x00, 0x01, 0x00, 0x00, 0x00, 0x00, 0x00, 0x00, 0x00, 0x00, 0x00, 0x00,
  0x6a, 0x98, 0x92, 0xbf, 0xdf, 0x35, 0x92, 0x3f, 0x00, 0x00, 0x00, 0x00,
  0xba, 0x45, 0x8a, 0xbf, 0x0a, 0x84, 0x93, 0x3f, 0x1c, 0x20, 0x92, 0x3f,
  0x72, 0x8b, 0x92, 0xbf, 0x00, 0x95, 0x92, 0x3f, 0xcd, 0xe3, 0x92, 0x3f,
  0x96, 0x7a, 0x92, 0x3f, 0x2f, 0x5b, 0x92, 0x3f, 0x8c, 0x48, 0x94, 0xbf,
  0x00, 0x00, 0x00, 0x00, 0x00, 0x00, 0x00, 0x00, 0x5e, 0xdc, 0x92, 0xbf,
  0x00, 0x00, 0x00, 0x00, 0x9a, 0xd3, 0x91, 0xbf, 0x13, 0x3e, 0x90, 0xbf,
  0xde, 0x37, 0x92, 0xbf, 0x00, 0x00, 0x00, 0x00, 0x00, 0x00, 0x00, 0x00,
  0x00, 0x00, 0x00, 0x00, 0xa1, 0x46, 0x90, 0xbf, 0xc9, 0x77, 0x92, 0x3f,
  0x0e, 0xb8, 0x91, 0xbf, 0x56, 0xc8, 0x91, 0x3f, 0x00, 0x00, 0x00, 0x00,
  0x31, 0x33, 0x92, 0x3f, 0xd2, 0xd2, 0x91, 0xbf, 0x61, 0xb1, 0x91, 0x3f,
  0x00, 0x00, 0x00, 0x00, 0x83, 0xcc, 0x94, 0xbf, 0xe2, 0xa2, 0x90, 0x3f,
  0x00, 0x00, 0x00, 0x00, 0xa5, 0x2e, 0x93, 0xbf, 0x3d, 0x57, 0x92, 0x3f,
  0x00, 0x00, 0x00, 0x00, 0x00, 0x00, 0x00, 0x00, 0x00, 0x00, 0x00, 0x00,
  0xd0, 0x75, 0x92, 0x3f, 0xbf, 0x9a, 0x91, 0x3f, 0x9e, 0xa3, 0x91, 0xbf,
  0x8f, 0x12, 0x92, 0x3f, 0xd4, 0xae, 0x92, 0x3f, 0xb8, 0x4d, 0x90, 0xbf,
  0x69, 0xe4, 0x92, 0x3f, 0x00, 0x00, 0x00, 0x00, 0x00, 0x00, 0x00, 0x00,
  0x00, 0x00, 0x00, 0x00, 0xa6, 0xd8, 0x91, 0xbf, 0xbe, 0xa7, 0x92, 0x3f,
  0x00, 0x00, 0x00, 0x00, 0x17, 0xd3, 0x92, 0x3f, 0x00, 0x00, 0x00, 0x00,
  0x00, 0x00, 0x00, 0x00, 0x00, 0x00, 0x00, 0x00, 0x00, 0x00, 0x00, 0x00,
  0x97, 0x77, 0x92, 0xbf, 0xae, 0xad, 0x91, 0x3f, 0xba, 0x79, 0x92, 0xbf,
  0x00, 0x00, 0x00, 0x00, 0x00, 0x00, 0x00, 0x00, 0xb2, 0xff, 0xff, 0xff,
  0x10, 0x00, 0x00, 0x00, 0x03, 0x00, 0x00, 0x00, 0x10, 0x00, 0x00, 0x00,
  0x20, 0x00, 0x00, 0x00, 0x01, 0x00, 0x00, 0x00, 0x40, 0x00, 0x00, 0x00,
  0x0a, 0x00, 0x00, 0x00, 0x64, 0x65, 0x6e, 0x73, 0x65, 0x2f, 0x62, 0x69,
  0x61, 0x73, 0x00, 0x00, 0x04, 0x00, 0x06, 0x00, 0x04, 0x00, 0x00, 0x00,
  0x00, 0x00, 0x06, 0x00, 0x08, 0x00, 0x04, 0x00, 0x06, 0x00, 0x00, 0x00,
  0x04, 0x00, 0x00, 0x00, 0x04, 0x00, 0x00, 0x00, 0x14, 0xd9, 0x92, 0xbf,
  0x00, 0x00, 0x0e, 0x00, 0x14, 0x00, 0x04, 0x00, 0x00, 0x00, 0x08, 0x00,
  0x0c, 0x00, 0x10, 0x00, 0x0e, 0x00, 0x00, 0x00, 0x10, 0x00, 0x00, 0x00,
  0x02, 0x00, 0x00, 0x00, 0x10, 0x00, 0x00, 0x00, 0x20, 0x00, 0x00, 0x00,
  0x01, 0x00, 0x00, 0x00, 0x01, 0x00, 0x00, 0x00, 0x0c, 0x00, 0x00, 0x00,
  0x64, 0x65, 0x6e, 0x73, 0x65, 0x5f, 0x31, 0x2f, 0x62, 0x69, 0x61, 0x73,
  0x00, 0x00, 0x00, 0x00, 0x90, 0xff, 0xff, 0xff, 0x14, 0x00, 0x18, 0x00,
  0x04, 0x00, 0x00, 0x00, 0x08, 0x00, 0x0c, 0x00, 0x10, 0x00, 0x00, 0x00,
  0x00, 0x00, 0x14, 0x00, 0x14, 0x00, 0x00, 0x00, 0x14, 0x00, 0x00, 0x00,
  0x01, 0x00, 0x00, 0x00, 0x18, 0x00, 0x00, 0x00, 0x44, 0x00, 0x00, 0x00,
  0x34, 0x00, 0x00, 0x00, 0x02, 0x00, 0x00, 0x00, 0x01, 0x00, 0x00, 0x00,
  0x01, 0x00, 0x00, 0x00, 0x1f, 0x00, 0x00, 0x00, 0x73, 0x65, 0x72, 0x76,
  0x69, 0x6e, 0x67, 0x5f, 0x64, 0x65, 0x66, 0x61, 0x75, 0x6c, 0x74, 0x5f,
  0x66, 0x6c, 0x61, 0x74, 0x74, 0x65, 0x6e, 0x5f, 0x69, 0x6e, 0x70, 0x75,
  0x74, 0x3a, 0x30, 0x00, 0x02, 0x00, 0x00, 0x00, 0xff, 0xff, 0xff, 0xff,
  0x01, 0x00, 0x00, 0x00, 0xfc, 0xff, 0xff, 0xff, 0x04, 0x00, 0x04, 0x00,
  0x04, 0x00, 0x00, 0x00
};
const int model_data_len = 2500;
